function [Y,Xf,Af] = myNeuralNetworkFunction(X,~,~)
%MYNEURALNETWORKFUNCTION neural network simulation function.
%
% Generated by Neural Network Toolbox function genFunction, 05-Dec-2016 01:03:10.
%
% [Y] = myNeuralNetworkFunction(X,~,~) takes these arguments:
%
%   X = 1xTS cell, 1 inputs over TS timesteps
%   Each X{1,ts} = Qx10 matrix, input #1 at timestep ts.
%
% and returns:
%   Y = 1xTS cell of 1 outputs over TS timesteps.
%   Each Y{1,ts} = Qx16 matrix, output #1 at timestep ts.
%
% where Q is number of samples (or series) and TS is the number of timesteps.

%#ok<*RPMT0>

% ===== NEURAL NETWORK CONSTANTS =====

% Layer 1
IW1_1 = [3.9553415061295967 2.4929947460595434 3.2285464098073549 4.2907180385288965 4.772329246935203 3.1768826619964976 2.9527145359019262 4.6129597197898411 1.9798598949211905 2.2749562171628708;2.8177083333333335 3.0802083333333332 2.2937499999999993 3.285416666666666 4.3114583333333325 4.6854166666666668 2.2114583333333333 2.6895833333333337 4.5520833333333339 2.2031249999999996;2.4709999999999996 2.4479999999999995 2.3800000000000003 2.6630000000000003 2.9920000000000004 4.718 4.7930000000000019 4.660000000000001 3.198 3.9219999999999997;2.5340314136125652 4.8211169284467701 2.1588132635253059 3.4581151832460741 4.1649214659685869 2.8516579406631761 4.0532286212914483 2.4973821989528791 2.0698080279232109 3.3446771378708542;4.6918819188191883 4.1263837638376373 4.7075645756457583 4.4409594095940967 4.5119926199262004 2.6605166051660518 2.5239852398523985 2.4714022140221394 4.3717712177121761 3.2647601476014749;2.7911184210526314 3.9999999999999982 3.8050986842105257 2.6414473684210527 4.7886513157894735 3.8116776315789469 2.6817434210526314 4.7360197368421053 4.4292763157894735 4.7615131578947381;2.3439922480620168 2.3527131782945743 4.6870155038759691 2.6375968992248064 4.6792635658914739 2.6976744186046506 4.2170542635658919 2.1753875968992253 3.0726744186046502 3.6124031007751944;2.0944816053511714 3.5936454849498318 4.4999999999999982 4.8553511705685599 2.5200668896321066 3.8754180602006683 3.0911371237458201 2.9623745819397995 2.6505016722408024 4.6789297658862852;4.5190380761523041 2.632264529058117 2.2424849699398806 4.7104208416833657 4.2515030060120242 2.736472945891784 4.709418837675349 3.7615230460921834 4.473947895791583 4.3937875751502995;4.544839255499153 4.0253807106599 4.8460236886632808 2.5287648054145513 3.1218274111675126 2.2182741116751257 4.4018612521150597 4.629441624365481 2.6878172588832485 3.9923857868020298;3.0707317073170732 2.2268292682926831 3.2016260162601631 2.7861788617886183 2.0723577235772361 2.1495934959349596 2.5357723577235776 3.3065040650406501 4.3333333333333339 2.7804878048780495;3.0653710247349824 3.1651943462897529 4.838339222614839 4.6598939929328607 3.4752650176678448 4.5344522968197873 4.7835689045936371 3.9257950530035339 4.6466431095406335 2.3056537102473489;5.0483870967741931 2.6825127334465186 2.9507640067911707 3.4380305602716454 3.1477079796264853 4.4524617996604423 2.7011884550084888 2.6332767402376911 2.671477079796265 4.8641765704584037;4.2584175084175069 4.3905723905723884 4.4621212121212137 2.5808080808080804 2.9831649831649831 5.0606060606060606 3.0294612794612776 3.432659932659933 2.2777777777777772 2.2794612794612785;4.0215654952076676 4.8051118210862613 3.0343450479233223 2.5974440894568698 2.527156549520766 3.6269968051118204 4.6613418530351423 2.3769968051118209 4.9081469648562308 3.6230031948881782;3.5954465849387041 4.9588441330998254 2.528021015761821 4.6120840630472859 2.2872154115586687 3.1190893169877421 2.9063047285464099 4.9912434325744321 3.9579684763572676 3.0175131348511388];

% ===== SIMULATION ========

% Format Input Arguments
isCellX = iscell(X);
if ~isCellX, X = {X}; end;

% Dimensions
TS = size(X,2); % timesteps

% Allocate Outputs
Y = cell(1,TS);

% Time loop
for ts=1:TS
    
    % Input 1
    X{1,ts} = X{1,ts}';
    % no processing
    
    % Layer 1
    z1 = negdist_apply(IW1_1,X{1,ts});
    a1 = compet_apply(z1);
    
    % Output 1
    Y{1,ts} = a1;
    Y{1,ts} = Y{1,ts}';
end

% Final Delay States
Xf = cell(1,0);
Af = cell(1,0);

% Format Output Arguments
if ~isCellX, Y = cell2mat(Y); end
end

% ===== MODULE FUNCTIONS ========

% Negative Distance Weight Function
function z = negdist_apply(w,p,~)
[S,R] = size(w);
Q = size(p,2);
if isa(w,'gpuArray')
    z = iNegDistApplyGPU(w,p,R,S,Q);
else
    z = iNegDistApplyCPU(w,p,S,Q);
end
end
function z = iNegDistApplyCPU(w,p,S,Q)
z = zeros(S,Q);
if (Q<S)
    pt = p';
    for q=1:Q
        z(:,q) = sum(bsxfun(@minus,w,pt(q,:)).^2,2);
    end
else
    wt = w';
    for i=1:S
        z(i,:) = sum(bsxfun(@minus,wt(:,i),p).^2,1);
    end
end
z = -sqrt(z);
end
function z = iNegDistApplyGPU(w,p,R,S,Q)
p = reshape(p,1,R,Q);
sd = arrayfun(@iNegDistApplyGPUHelper,w,p);
z = -sqrt(reshape(sum(sd,2),S,Q));
end
function sd = iNegDistApplyGPUHelper(w,p)
sd = (w-p) .^ 2;
end

% Competitive Transfer Function
function a = compet_apply(n,~)
if isempty(n)
    a = n;
else
    [S,Q] = size(n);
    nanInd = any(isnan(n),1);
    a = zeros(S,Q,'like',n);
    [~,maxRows] = max(n,[],1);
    onesInd = maxRows + S*(0:(Q-1));
    a(onesInd) = 1;
    a(:,nanInd) = NaN;
end
end
